FFFF
FFE1
FFD2
FFBA
0076
002C
FFE4
FFE1
FFF1
007F
0016
FFCA
FFEF
000F
0066
FFED
FFB3
FFFA
0016
003B
FFC6
FFAE
000B
0018
0015
FFB7
FFC5
0028
001C
0000
FFC3
FFEE
0045
001C
FFF5
FFDB
0014
004F
000E
FFE9
FFED
0025
003E
FFEF
FFDA
FFF6
0021
001C
FFD0
FFD2
FFFF
0017
FFFF
FFC4
FFDF
0011
0014
FFF3
FFD0
FFFD
0027
0015
FFF3
FFE7
001B
0032
000E
FFF2
FFF9
0027
0027
FFF9
FFE9
FFFE
001F
000C
FFE0
FFE2
FFFF
0011
FFF4
FFD4
FFE8
0007
000A
FFEC
FFDD
FFFE
0017
000C
FFF1
FFF3
0017
0022
000B
FFF7
0003
0021
001C
FFFF
FFF4
