FFF3
FFE9
FFFD
0016
0004
FFFB
FFFF
0015
0022
0009
0003
000D
001C
001B
FFFF
FFFD
000A
000F
0004
FFEB
FFF1
FFFF
FFFD
FFEF
FFE0
FFEF
FFFD
FFF7
FFEC
FFE9
FFFD
0009
0000
FFF9
FFFF
0012
0016
0009
0005
000E
001B
0015
0005
0004
000C
0010
0003
FFF5
FFF8
0000
FFFE
FFF0
FFE8
FFF2
FFF9
FFF5
FFEB
FFEC
FFFA
0001
FFFC
FFF7
FFFF
000C
000E
0007
0006
000E
0017
0011
0008
0008
000E
000F
0005
FFFC
FFFE
0002
FFFE
FFF3
FFEF
FFF4
FFF8
FFF4
FFED
FFEF
FFF8
FFFC
FFF8
FFF6
FFFD
0007
0008
0004
0005
000D
0012
000F
000A
000A
000F
