0005
002B
FFE8
000F
FFF4
0009
FFFA
0004
FFFE
0001
0000
FFFF
0001
FFFF
0001
FFFF
0001
FFFF
0001
0000
0000
0000
0000
0000
0000
0000
0000
0000
0000
0000
0000
0000
0000
0000
0000
0000
0000
0000
0000
0000
0000
0000
0000
0000
0000
0000
0000
0000
0000
0000
0000
0000
0000
0000
0000
0000
0000
0000
0000
0000
0000
0000
0000
0000
